TRT-8402-EntropyCalibration2
images: 40008102
/backbone/backbone/stem/down1/conv/Conv_output_0: 3d418306
/backbone/backbone/stem/down1/act/Relu_output_0: 3d418306
/backbone/backbone/stem/conv2/conv/Conv_output_0: 3d418306
/backbone/backbone/stem/conv2/act/Relu_output_0: 3d418306
/backbone/backbone/dark2/dark2.0/conv/Conv_output_0: 3d418306
/backbone/backbone/dark2/dark2.0/act/Relu_output_0: 3d418306
/backbone/backbone/dark2/dark2.1/conv1/conv/Conv_output_0: 3d418306
/backbone/backbone/dark2/dark2.1/conv1/act/Relu_output_0: 3d418306
/backbone/backbone/dark2/dark2.1/conv2/conv/Conv_output_0: 3d418306
/backbone/backbone/dark2/dark2.1/conv2/act/Relu_output_0: 3d418306
/backbone/backbone/dark2/dark2.1/m.0/conv1/conv/Conv_output_0: 3d418306
/backbone/backbone/dark2/dark2.1/m.0/conv1/act/Relu_output_0: 3d418306
/backbone/backbone/dark2/dark2.1/m.0/conv2/conv/Conv_output_0: 3d418306
/backbone/backbone/dark2/dark2.1/m.0/conv2/act/Relu_output_0: 3d418306
/backbone/backbone/dark2/dark2.1/m.0/Add_output_0: 3d418306
/backbone/backbone/dark2/dark2.1/m.1/conv1/conv/Conv_output_0: 3d418306
/backbone/backbone/dark2/dark2.1/m.1/conv1/act/Relu_output_0: 3d418306
/backbone/backbone/dark2/dark2.1/m.1/conv2/conv/Conv_output_0: 3d418306
/backbone/backbone/dark2/dark2.1/m.1/conv2/act/Relu_output_0: 3d418306
/backbone/backbone/dark2/dark2.1/m.1/Add_output_0: 3d418306
/backbone/backbone/dark2/dark2.1/Concat_output_0: 3d418306
/backbone/backbone/dark2/dark2.1/conv3/conv/Conv_output_0: 3d418306
/backbone/backbone/dark2/dark2.1/conv3/act/Relu_output_0: 3d418306
/backbone/backbone/dark3/dark3.0/conv/Conv_output_0: 3d418306
/backbone/backbone/dark3/dark3.0/act/Relu_output_0: 3d418306
/backbone/backbone/dark3/dark3.1/conv1/conv/Conv_output_0: 3d418306
/backbone/backbone/dark3/dark3.1/conv1/act/Relu_output_0: 3d418306
/backbone/backbone/dark3/dark3.1/conv2/conv/Conv_output_0: 3d418306
/backbone/backbone/dark3/dark3.1/conv2/act/Relu_output_0: 3d418306
/backbone/backbone/dark3/dark3.1/m.0/conv1/conv/Conv_output_0: 3d418306
/backbone/backbone/dark3/dark3.1/m.0/conv1/act/Relu_output_0: 3d418306
/backbone/backbone/dark3/dark3.1/m.0/conv2/conv/Conv_output_0: 3d418306
/backbone/backbone/dark3/dark3.1/m.0/conv2/act/Relu_output_0: 3d418306
/backbone/backbone/dark3/dark3.1/m.0/Add_output_0: 3d418306
/backbone/backbone/dark3/dark3.1/m.1/conv1/conv/Conv_output_0: 3d418306
/backbone/backbone/dark3/dark3.1/m.1/conv1/act/Relu_output_0: 3d418306
/backbone/backbone/dark3/dark3.1/m.1/conv2/conv/Conv_output_0: 3d418306
/backbone/backbone/dark3/dark3.1/m.1/conv2/act/Relu_output_0: 3d418306
/backbone/backbone/dark3/dark3.1/m.1/Add_output_0: 3d418306
/backbone/backbone/dark3/dark3.1/m.2/conv1/conv/Conv_output_0: 3d418306
/backbone/backbone/dark3/dark3.1/m.2/conv1/act/Relu_output_0: 3d418306
/backbone/backbone/dark3/dark3.1/m.2/conv2/conv/Conv_output_0: 3d418306
/backbone/backbone/dark3/dark3.1/m.2/conv2/act/Relu_output_0: 3d418306
/backbone/backbone/dark3/dark3.1/m.2/Add_output_0: 3d418306
/backbone/backbone/dark3/dark3.1/m.3/conv1/conv/Conv_output_0: 3d418306
/backbone/backbone/dark3/dark3.1/m.3/conv1/act/Relu_output_0: 3d418306
/backbone/backbone/dark3/dark3.1/m.3/conv2/conv/Conv_output_0: 3d418306
/backbone/backbone/dark3/dark3.1/m.3/conv2/act/Relu_output_0: 3d418306
/backbone/backbone/dark3/dark3.1/m.3/Add_output_0: 3d418306
/backbone/backbone/dark3/dark3.1/m.4/conv1/conv/Conv_output_0: 3d418306
/backbone/backbone/dark3/dark3.1/m.4/conv1/act/Relu_output_0: 3d418306
/backbone/backbone/dark3/dark3.1/m.4/conv2/conv/Conv_output_0: 3d418306
/backbone/backbone/dark3/dark3.1/m.4/conv2/act/Relu_output_0: 3d418306
/backbone/backbone/dark3/dark3.1/m.4/Add_output_0: 3d418306
/backbone/backbone/dark3/dark3.1/m.5/conv1/conv/Conv_output_0: 3d418306
/backbone/backbone/dark3/dark3.1/m.5/conv1/act/Relu_output_0: 3d418306
/backbone/backbone/dark3/dark3.1/m.5/conv2/conv/Conv_output_0: 3d418306
/backbone/backbone/dark3/dark3.1/m.5/conv2/act/Relu_output_0: 3d418306
/backbone/backbone/dark3/dark3.1/m.5/Add_output_0: 3d418306
/backbone/backbone/dark3/dark3.1/Concat_output_0: 3d418306
/backbone/backbone/dark3/dark3.1/conv3/conv/Conv_output_0: 3d418306
/backbone/backbone/dark3/dark3.1/conv3/act/Relu_output_0: 3d418306
/backbone/backbone/dark4/dark4.0/conv/Conv_output_0: 3d418306
/backbone/backbone/dark4/dark4.0/act/Relu_output_0: 3d418306
/backbone/backbone/dark4/dark4.1/conv1/conv/Conv_output_0: 3d418306
/backbone/backbone/dark4/dark4.1/conv1/act/Relu_output_0: 3d418306
/backbone/backbone/dark4/dark4.1/conv2/conv/Conv_output_0: 3d418306
/backbone/backbone/dark4/dark4.1/conv2/act/Relu_output_0: 3d418306
/backbone/backbone/dark4/dark4.1/m.0/conv1/conv/Conv_output_0: 3d418306
/backbone/backbone/dark4/dark4.1/m.0/conv1/act/Relu_output_0: 3d418306
/backbone/backbone/dark4/dark4.1/m.0/conv2/conv/Conv_output_0: 3d418306
/backbone/backbone/dark4/dark4.1/m.0/conv2/act/Relu_output_0: 3d418306
/backbone/backbone/dark4/dark4.1/m.0/Add_output_0: 3d418306
/backbone/backbone/dark4/dark4.1/m.1/conv1/conv/Conv_output_0: 3d418306
/backbone/backbone/dark4/dark4.1/m.1/conv1/act/Relu_output_0: 3d418306
/backbone/backbone/dark4/dark4.1/m.1/conv2/conv/Conv_output_0: 3d418306
/backbone/backbone/dark4/dark4.1/m.1/conv2/act/Relu_output_0: 3d418306
/backbone/backbone/dark4/dark4.1/m.1/Add_output_0: 3d418306
/backbone/backbone/dark4/dark4.1/m.2/conv1/conv/Conv_output_0: 3d418306
/backbone/backbone/dark4/dark4.1/m.2/conv1/act/Relu_output_0: 3d418306
/backbone/backbone/dark4/dark4.1/m.2/conv2/conv/Conv_output_0: 3d418306
/backbone/backbone/dark4/dark4.1/m.2/conv2/act/Relu_output_0: 3d418306
/backbone/backbone/dark4/dark4.1/m.2/Add_output_0: 3d418306
/backbone/backbone/dark4/dark4.1/m.3/conv1/conv/Conv_output_0: 3d418306
/backbone/backbone/dark4/dark4.1/m.3/conv1/act/Relu_output_0: 3d418306
/backbone/backbone/dark4/dark4.1/m.3/conv2/conv/Conv_output_0: 3d418306
/backbone/backbone/dark4/dark4.1/m.3/conv2/act/Relu_output_0: 3d418306
/backbone/backbone/dark4/dark4.1/m.3/Add_output_0: 3d418306
/backbone/backbone/dark4/dark4.1/m.4/conv1/conv/Conv_output_0: 3d418306
/backbone/backbone/dark4/dark4.1/m.4/conv1/act/Relu_output_0: 3d418306
/backbone/backbone/dark4/dark4.1/m.4/conv2/conv/Conv_output_0: 3d418306
/backbone/backbone/dark4/dark4.1/m.4/conv2/act/Relu_output_0: 3d418306
/backbone/backbone/dark4/dark4.1/m.4/Add_output_0: 3d418306
/backbone/backbone/dark4/dark4.1/m.5/conv1/conv/Conv_output_0: 3d418306
/backbone/backbone/dark4/dark4.1/m.5/conv1/act/Relu_output_0: 3d418306
/backbone/backbone/dark4/dark4.1/m.5/conv2/conv/Conv_output_0: 3d418306
/backbone/backbone/dark4/dark4.1/m.5/conv2/act/Relu_output_0: 3d418306
/backbone/backbone/dark4/dark4.1/m.5/Add_output_0: 3d418306
/backbone/backbone/dark4/dark4.1/Concat_output_0: 3d418306
/backbone/backbone/dark4/dark4.1/conv3/conv/Conv_output_0: 3d418306
/backbone/backbone/dark4/dark4.1/conv3/act/Relu_output_0: 3d418306
/backbone/backbone/dark5/dark5.0/conv/Conv_output_0: 3d418306
/backbone/backbone/dark5/dark5.0/act/Relu_output_0: 3d418306
/backbone/backbone/dark5/dark5.1/conv1/conv/Conv_output_0: 3d418306
/backbone/backbone/dark5/dark5.1/conv1/act/Relu_output_0: 3d418306
/backbone/backbone/dark5/dark5.1/conv2/conv/Conv_output_0: 3d418306
/backbone/backbone/dark5/dark5.1/conv2/act/Relu_output_0: 3d418306
/backbone/backbone/dark5/dark5.1/m.0/conv1/conv/Conv_output_0: 3d418306
/backbone/backbone/dark5/dark5.1/m.0/conv1/act/Relu_output_0: 3d418306
/backbone/backbone/dark5/dark5.1/m.0/conv2/conv/Conv_output_0: 3d418306
/backbone/backbone/dark5/dark5.1/m.0/conv2/act/Relu_output_0: 3d418306
/backbone/backbone/dark5/dark5.1/m.1/conv1/conv/Conv_output_0: 3d418306
/backbone/backbone/dark5/dark5.1/m.1/conv1/act/Relu_output_0: 3d418306
/backbone/backbone/dark5/dark5.1/m.1/conv2/conv/Conv_output_0: 3d418306
/backbone/backbone/dark5/dark5.1/m.1/conv2/act/Relu_output_0: 3d418306
/backbone/backbone/dark5/dark5.1/Concat_output_0: 3d418306
/backbone/backbone/dark5/dark5.1/conv3/conv/Conv_output_0: 3d418306
/backbone/backbone/dark5/dark5.1/conv3/act/Relu_output_0: 3d418306
/backbone/lateral_conv0/conv/Conv_output_0: 3d418306
/backbone/lateral_conv0/act/Relu_output_0: 3d418306
/backbone/upsample/Resize_output_0: 3d418306
/backbone/Concat_output_0: 3d418306
/backbone/C3_p4/conv1/conv/Conv_output_0: 3d418306
/backbone/C3_p4/conv1/act/Relu_output_0: 3d418306
/backbone/C3_p4/conv2/conv/Conv_output_0: 3d418306
/backbone/C3_p4/conv2/act/Relu_output_0: 3d418306
/backbone/C3_p4/m.0/conv1/conv/Conv_output_0: 3d418306
/backbone/C3_p4/m.0/conv1/act/Relu_output_0: 3d418306
/backbone/C3_p4/m.0/conv2/conv/Conv_output_0: 3d418306
/backbone/C3_p4/m.0/conv2/act/Relu_output_0: 3d418306
/backbone/C3_p4/m.1/conv1/conv/Conv_output_0: 3d418306
/backbone/C3_p4/m.1/conv1/act/Relu_output_0: 3d418306
/backbone/C3_p4/m.1/conv2/conv/Conv_output_0: 3d418306
/backbone/C3_p4/m.1/conv2/act/Relu_output_0: 3d418306
/backbone/C3_p4/Concat_output_0: 3d418306
/backbone/C3_p4/conv3/conv/Conv_output_0: 3d418306
/backbone/C3_p4/conv3/act/Relu_output_0: 3d418306
/backbone/reduce_conv1/conv/Conv_output_0: 3d418306
/backbone/reduce_conv1/act/Relu_output_0: 3d418306
/backbone/upsample_1/Resize_output_0: 3d418306
/backbone/Concat_1_output_0: 3d418306
/backbone/C3_p3/conv1/conv/Conv_output_0: 3d418306
/backbone/C3_p3/conv1/act/Relu_output_0: 3d418306
/backbone/C3_p3/conv2/conv/Conv_output_0: 3d418306
/backbone/C3_p3/conv2/act/Relu_output_0: 3d418306
/backbone/C3_p3/m.0/conv1/conv/Conv_output_0: 3d418306
/backbone/C3_p3/m.0/conv1/act/Relu_output_0: 3d418306
/backbone/C3_p3/m.0/conv2/conv/Conv_output_0: 3d418306
/backbone/C3_p3/m.0/conv2/act/Relu_output_0: 3d418306
/backbone/C3_p3/m.1/conv1/conv/Conv_output_0: 3d418306
/backbone/C3_p3/m.1/conv1/act/Relu_output_0: 3d418306
/backbone/C3_p3/m.1/conv2/conv/Conv_output_0: 3d418306
/backbone/C3_p3/m.1/conv2/act/Relu_output_0: 3d418306
/backbone/C3_p3/Concat_output_0: 3d418306
/backbone/C3_p3/conv3/conv/Conv_output_0: 3d418306
/backbone/C3_p3/conv3/act/Relu_output_0: 3d418306
/backbone/bu_conv2/conv/Conv_output_0: 3d418306
/backbone/bu_conv2/act/Relu_output_0: 3d418306
/backbone/Concat_2_output_0: 3d418306
/backbone/C3_n3/conv1/conv/Conv_output_0: 3d418306
/backbone/C3_n3/conv1/act/Relu_output_0: 3d418306
/backbone/C3_n3/conv2/conv/Conv_output_0: 3d418306
/backbone/C3_n3/conv2/act/Relu_output_0: 3d418306
/backbone/C3_n3/m.0/conv1/conv/Conv_output_0: 3d418306
/backbone/C3_n3/m.0/conv1/act/Relu_output_0: 3d418306
/backbone/C3_n3/m.0/conv2/conv/Conv_output_0: 3d418306
/backbone/C3_n3/m.0/conv2/act/Relu_output_0: 3d418306
/backbone/C3_n3/m.1/conv1/conv/Conv_output_0: 3d418306
/backbone/C3_n3/m.1/conv1/act/Relu_output_0: 3d418306
/backbone/C3_n3/m.1/conv2/conv/Conv_output_0: 3d418306
/backbone/C3_n3/m.1/conv2/act/Relu_output_0: 3d418306
/backbone/C3_n3/Concat_output_0: 3d418306
/backbone/C3_n3/conv3/conv/Conv_output_0: 3d418306
/backbone/C3_n3/conv3/act/Relu_output_0: 3d418306
/backbone/bu_conv1/conv/Conv_output_0: 3d418306
/backbone/bu_conv1/act/Relu_output_0: 3d418306
/backbone/Concat_3_output_0: 3d418306
/backbone/C3_n4/conv1/conv/Conv_output_0: 3d418306
/backbone/C3_n4/conv1/act/Relu_output_0: 3d418306
/backbone/C3_n4/conv2/conv/Conv_output_0: 3d418306
/backbone/C3_n4/conv2/act/Relu_output_0: 3d418306
/backbone/C3_n4/m.0/conv1/conv/Conv_output_0: 3d418306
/backbone/C3_n4/m.0/conv1/act/Relu_output_0: 3d418306
/backbone/C3_n4/m.0/conv2/conv/Conv_output_0: 3d418306
/backbone/C3_n4/m.0/conv2/act/Relu_output_0: 3d418306
/backbone/C3_n4/m.1/conv1/conv/Conv_output_0: 3d418306
/backbone/C3_n4/m.1/conv1/act/Relu_output_0: 3d418306
/backbone/C3_n4/m.1/conv2/conv/Conv_output_0: 3d418306
/backbone/C3_n4/m.1/conv2/act/Relu_output_0: 3d418306
/backbone/C3_n4/Concat_output_0: 3d418306
/backbone/C3_n4/conv3/conv/Conv_output_0: 3d418306
/backbone/C3_n4/conv3/act/Relu_output_0: 3d418306
/head/stems.0/conv/Conv_output_0: 3d418306
/head/stems.0/act/Relu_output_0: 3d418306
/head/cls_convs.0/cls_convs.0.0/conv/Conv_output_0: 3d418306
/head/cls_convs.0/cls_convs.0.0/act/Relu_output_0: 3d418306
/head/cls_convs.0/cls_convs.0.1/conv/Conv_output_0: 3d418306
/head/cls_convs.0/cls_convs.0.1/act/Relu_output_0: 3d418306
/head/cls_preds.0/Conv_output_0: 3d418306
/head/reg_convs.0/reg_convs.0.0/conv/Conv_output_0: 3d418306
/head/reg_convs.0/reg_convs.0.0/act/Relu_output_0: 3d418306
/head/reg_convs.0/reg_convs.0.1/conv/Conv_output_0: 3d418306
/head/reg_convs.0/reg_convs.0.1/act/Relu_output_0: 3d418306
/head/reg_preds.0/Conv_output_0: 3d418306
/head/obj_preds.0/Conv_output_0: 3d418306
/head/Sigmoid_output_0: 3d418306
/head/Sigmoid_1_output_0: 3d418306
/head/Concat_output_0: 3d418306
/head/stems.1/conv/Conv_output_0: 3d418306
/head/stems.1/act/Relu_output_0: 3d418306
/head/cls_convs.1/cls_convs.1.0/conv/Conv_output_0: 3d418306
/head/cls_convs.1/cls_convs.1.0/act/Relu_output_0: 3d418306
/head/cls_convs.1/cls_convs.1.1/conv/Conv_output_0: 3d418306
/head/cls_convs.1/cls_convs.1.1/act/Relu_output_0: 3d418306
/head/cls_preds.1/Conv_output_0: 3d418306
/head/reg_convs.1/reg_convs.1.0/conv/Conv_output_0: 3d418306
/head/reg_convs.1/reg_convs.1.0/act/Relu_output_0: 3d418306
/head/reg_convs.1/reg_convs.1.1/conv/Conv_output_0: 3d418306
/head/reg_convs.1/reg_convs.1.1/act/Relu_output_0: 3d418306
/head/reg_preds.1/Conv_output_0: 3d418306
/head/obj_preds.1/Conv_output_0: 3d418306
/head/Sigmoid_2_output_0: 3d418306
/head/Sigmoid_3_output_0: 3d418306
/head/Concat_1_output_0: 3d418306
/head/stems.2/conv/Conv_output_0: 3d418306
/head/stems.2/act/Relu_output_0: 3d418306
/head/cls_convs.2/cls_convs.2.0/conv/Conv_output_0: 3d418306
/head/cls_convs.2/cls_convs.2.0/act/Relu_output_0: 3d418306
/head/cls_convs.2/cls_convs.2.1/conv/Conv_output_0: 3d418306
/head/cls_convs.2/cls_convs.2.1/act/Relu_output_0: 3d418306
/head/cls_preds.2/Conv_output_0: 3d418306
/head/reg_convs.2/reg_convs.2.0/conv/Conv_output_0: 3d418306
/head/reg_convs.2/reg_convs.2.0/act/Relu_output_0: 3d418306
/head/reg_convs.2/reg_convs.2.1/conv/Conv_output_0: 3d418306
/head/reg_convs.2/reg_convs.2.1/act/Relu_output_0: 3d418306
/head/reg_preds.2/Conv_output_0: 3d418306
/head/obj_preds.2/Conv_output_0: 3d418306
/head/Sigmoid_4_output_0: 3d418306
/head/Sigmoid_5_output_0: 3d418306
/head/Concat_2_output_0: 3d418306
/head/Reshape_output_0: 3d418306
/head/Reshape_1_output_0: 3d418306
/head/Reshape_2_output_0: 3d418306
/head/Concat_6_output_0: 3d418306
output: 3d418306
/decorder/shallow_guide_scale2/conv/Conv_output_0: 3d418306
/decorder/shallow_guide_scale2/act/Relu_output_0: 3d418306
/decorder/shallow_guide_scale4/shallow_guide_scale4.0/conv/Conv_output_0: 3d418306
/decorder/shallow_guide_scale4/shallow_guide_scale4.0/act/Relu_output_0: 3d418306
/decorder/shallow_guide_scale4/shallow_guide_scale4.1/conv/Conv_output_0: 3d418306
/decorder/shallow_guide_scale4/shallow_guide_scale4.1/act/Relu_output_0: 3d418306
/decorder/shallow_guide_scale8/shallow_guide_scale8.0/conv/Conv_output_0: 3d418306
/decorder/shallow_guide_scale8/shallow_guide_scale8.0/act/Relu_output_0: 3d418306
/decorder/shallow_guide_scale8/shallow_guide_scale8.1/conv/Conv_output_0: 3d418306
/decorder/shallow_guide_scale8/shallow_guide_scale8.1/act/Relu_output_0: 3d418306
/decorder/shallow_guide_scale16/shallow_guide_scale16.0/conv/Conv_output_0: 3d418306
/decorder/shallow_guide_scale16/shallow_guide_scale16.0/act/Relu_output_0: 3d418306
/decorder/shallow_guide_scale16/shallow_guide_scale16.1/conv/Conv_output_0: 3d418306
/decorder/shallow_guide_scale16/shallow_guide_scale16.1/act/Relu_output_0: 3d418306
/decorder/Concat_output_0: 3d418306
/decorder/aggregators.0/conv/Conv_output_0: 3d418306
/decorder/aggregators.0/act/Relu_output_0: 3d418306
/decorder/decoder_scale16/decoder_scale16.0/conv/Conv_output_0: 3d418306
/decorder/decoder_scale16/decoder_scale16.0/act/Relu_output_0: 3d418306
/decorder/decoder_scale16/decoder_scale16.1/conv/Conv_output_0: 3d418306
/decorder/decoder_scale16/decoder_scale16.1/act/Relu_output_0: 3d418306
/decorder/upsample/Resize_output_0: 3d418306
/decorder/Concat_1_output_0: 3d418306
/decorder/aggregators.1/conv/Conv_output_0: 3d418306
/decorder/aggregators.1/act/Relu_output_0: 3d418306
/decorder/decoder_scale8/decoder_scale8.0/conv/Conv_output_0: 3d418306
/decorder/decoder_scale8/decoder_scale8.0/act/Relu_output_0: 3d418306
/decorder/decoder_scale8/decoder_scale8.1/conv/Conv_output_0: 3d418306
/decorder/decoder_scale8/decoder_scale8.1/act/Relu_output_0: 3d418306
/decorder/upsample_1/Resize_output_0: 3d418306
/decorder/Concat_2_output_0: 3d418306
/decorder/aggregators.2/conv/Conv_output_0: 3d418306
/decorder/aggregators.2/act/Relu_output_0: 3d418306
/decorder/decoder_scale4/decoder_scale4.0/conv/Conv_output_0: 3d418306
/decorder/decoder_scale4/decoder_scale4.0/act/Relu_output_0: 3d418306
/decorder/decoder_scale4/decoder_scale4.1/conv/Conv_output_0: 3d418306
/decorder/decoder_scale4/decoder_scale4.1/act/Relu_output_0: 3d418306
/decorder/upsample_2/Resize_output_0: 3d418306
/decorder/Concat_3_output_0: 3d418306
/decorder/Conv3x3_1_4/conv/Conv_output_0: 3d418306
/decorder/Conv3x3_1_4/act/Relu_output_0: 3d418306
/decorder/upsample_3/Resize_output_0: 3d418306
/decorder/Conv3x3_1_2/conv/Conv_output_0: 3d418306
/decorder/Conv3x3_1_2/act/Relu_output_0: 3d418306
/decorder/upsample_4/Resize_output_0: 3d418306
/decorder/Conv3x3_1_1/conv/Conv_output_0: 3d418306
/decorder/Conv3x3_1_1/act/Relu_output_0: 3d418306
/decorder/SemSegHead/Conv_output_0: 3d418306
/decorder/softmax/Transpose_output_0: 3d418306
(Unnamed Layer* 294) [Shuffle]_output: 3d418306
(Unnamed Layer* 295) [Softmax]_output: 3d418306
/decorder/softmax/Softmax_output_0: 3d418306
segmenter: 3d418306
